const unsigned char trained_tflite[] = {
  0x1c, 0x00, 0x00, 0x00, 0x54, 0x46, 0x4c, 0x33, 0x00, 0x00, 0x12, 0x00,
  0x1c, 0x00, 0x04, 0x00, 0x08, 0x00, 0x0c, 0x00, 0x10, 0x00, 0x14, 0x00,
  0x00, 0x00, 0x18, 0x00, 0x12, 0x00, 0x00, 0x00, 0x03, 0x00, 0x00, 0x00,
  0xa0, 0x0d, 0x00, 0x00, 0x7c, 0x05, 0x00, 0x00, 0x64, 0x05, 0x00, 0x00,
  0x3c, 0x00, 0x00, 0x00, 0x04, 0x00, 0x00, 0x00, 0x01, 0x00, 0x00, 0x00,
  0x0c, 0x00, 0x00, 0x00, 0x08, 0x00, 0x0c, 0x00, 0x04, 0x00, 0x08, 0x00,
  0x08, 0x00, 0x00, 0x00, 0x08, 0x00, 0x00, 0x00, 0x0c, 0x00, 0x00, 0x00,
  0x13, 0x00, 0x00, 0x00, 0x6d, 0x69, 0x6e, 0x5f, 0x72, 0x75, 0x6e, 0x74,
  0x69, 0x6d, 0x65, 0x5f, 0x76, 0x65, 0x72, 0x73, 0x69, 0x6f, 0x6e, 0x00,
  0x0d, 0x00, 0x00, 0x00, 0x1c, 0x05, 0x00, 0x00, 0x08, 0x05, 0x00, 0x00,
  0x9c, 0x04, 0x00, 0x00, 0x58, 0x04, 0x00, 0x00, 0x34, 0x04, 0x00, 0x00,
  0x90, 0x01, 0x00, 0x00, 0xac, 0x00, 0x00, 0x00, 0x78, 0x00, 0x00, 0x00,
  0x6c, 0x00, 0x00, 0x00, 0x58, 0x00, 0x00, 0x00, 0x44, 0x00, 0x00, 0x00,
  0x30, 0x00, 0x00, 0x00, 0x04, 0x00, 0x00, 0x00, 0x86, 0xfa, 0xff, 0xff,
  0x04, 0x00, 0x00, 0x00, 0x10, 0x00, 0x00, 0x00, 0x31, 0x2e, 0x35, 0x2e,
  0x30, 0x00, 0x00, 0x00, 0x00, 0x00, 0x00, 0x00, 0x00, 0x00, 0x00, 0x00,
  0x00, 0x00, 0x00, 0x00, 0x00, 0x00, 0x00, 0x00, 0x00, 0x00, 0x00, 0x00,
  0x7c, 0xfa, 0xff, 0xff, 0x00, 0x00, 0x00, 0x00, 0x00, 0x00, 0x00, 0x00,
  0x00, 0x00, 0x00, 0x00, 0x8c, 0xfa, 0xff, 0xff, 0x00, 0x00, 0x00, 0x00,
  0x00, 0x00, 0x00, 0x00, 0x00, 0x00, 0x00, 0x00, 0x9c, 0xfa, 0xff, 0xff,
  0x00, 0x00, 0x00, 0x00, 0x00, 0x00, 0x00, 0x00, 0x00, 0x00, 0x00, 0x00,
  0xac, 0xfa, 0xff, 0xff, 0x00, 0x00, 0x00, 0x00, 0xe6, 0xfa, 0xff, 0xff,
  0x04, 0x00, 0x00, 0x00, 0x1e, 0x00, 0x00, 0x00, 0xee, 0x81, 0xa6, 0x2d,
  0x27, 0x12, 0x17, 0x14, 0xd3, 0xfe, 0x24, 0xea, 0x07, 0xcf, 0x14, 0xe9,
  0xfc, 0x18, 0x28, 0x03, 0xc2, 0x32, 0x33, 0x35, 0x2a, 0x1e, 0xf4, 0xfb,
  0x15, 0xd8, 0x00, 0x00, 0x00, 0x00, 0x00, 0x00, 0x16, 0xfb, 0xff, 0xff,
  0x04, 0x00, 0x00, 0x00, 0xc8, 0x00, 0x00, 0x00, 0xd0, 0xfb, 0x10, 0x08,
  0x33, 0xd5, 0xe8, 0x0a, 0xc9, 0xc3, 0xe6, 0xda, 0x30, 0x31, 0xee, 0xfb,
  0xc6, 0x06, 0xea, 0x03, 0x14, 0x67, 0xee, 0x20, 0x35, 0x10, 0x7f, 0xde,
  0x37, 0xfb, 0x6a, 0xe4, 0x49, 0xf6, 0xcf, 0xfb, 0x04, 0x74, 0x29, 0xcc,
  0xd4, 0x42, 0x18, 0xef, 0x3b, 0x45, 0x34, 0xef, 0x49, 0x38, 0x38, 0xf2,
  0x1a, 0xd7, 0x18, 0xf9, 0x01, 0x4e, 0xd9, 0xf0, 0xe0, 0x00, 0xdd, 0xc8,
  0xf7, 0x23, 0x3c, 0x33, 0x33, 0xdb, 0x75, 0x13, 0xfd, 0xdb, 0x0a, 0x40,
  0x07, 0x1c, 0x0e, 0xd1, 0x2e, 0x29, 0xef, 0xd2, 0xd1, 0x38, 0x14, 0x1e,
  0xef, 0x5e, 0x3e, 0xd7, 0xc8, 0x20, 0x2f, 0x21, 0x18, 0xee, 0x42, 0x16,
  0x53, 0x51, 0xdc, 0x0c, 0xf0, 0xf6, 0x28, 0xfc, 0x48, 0xff, 0x01, 0x41,
  0xd0, 0x38, 0x09, 0x47, 0xd3, 0x10, 0xb8, 0x3e, 0x20, 0xdf, 0x0b, 0x3b,
  0x17, 0xf9, 0xfd, 0x1e, 0x0d, 0x30, 0xe2, 0x31, 0xb9, 0x08, 0x03, 0xf9,
  0x1a, 0xeb, 0x21, 0xf8, 0xd8, 0x2f, 0xdc, 0xc2, 0xee, 0xf5, 0xeb, 0xca,
  0x37, 0x25, 0x0f, 0x3f, 0x01, 0xf5, 0xef, 0xe9, 0xdf, 0x06, 0xec, 0x1c,
  0xd4, 0x33, 0xfe, 0x19, 0x3b, 0xf6, 0x25, 0xc4, 0xeb, 0xd8, 0x15, 0x2a,
  0x4a, 0x35, 0xce, 0x1a, 0xcf, 0x3f, 0xfd, 0xfb, 0xce, 0x05, 0x01, 0x36,
  0xcd, 0x24, 0x16, 0xd8, 0x28, 0xda, 0xd6, 0x1a, 0xd6, 0xe6, 0xb4, 0x04,
  0x40, 0x34, 0xf4, 0x3d, 0x00, 0x00, 0x00, 0x00, 0x00, 0x00, 0x00, 0x00,
  0x00, 0x00, 0x00, 0x00, 0xf6, 0xfb, 0xff, 0xff, 0x04, 0x00, 0x00, 0x00,
  0x94, 0x02, 0x00, 0x00, 0xd9, 0xf9, 0xe8, 0x0a, 0xf0, 0x01, 0xcf, 0xde,
  0xd4, 0xfd, 0x31, 0xe3, 0xdf, 0x1e, 0x1c, 0x1f, 0x2c, 0xe5, 0x1f, 0xdc,
  0x25, 0xe8, 0x1f, 0xce, 0xd3, 0xf3, 0xc2, 0x0f, 0xd7, 0xf0, 0xea, 0xe2,
  0x19, 0x06, 0x10, 0x00, 0xfd, 0x05, 0x2f, 0x17, 0x26, 0xd2, 0x16, 0x13,
  0xe7, 0xf3, 0xd2, 0xe3, 0xe7, 0xeb, 0xd2, 0x20, 0x16, 0xff, 0xe6, 0xd8,
  0xe7, 0x06, 0xe9, 0x04, 0x13, 0xdf, 0x03, 0x23, 0x2a, 0xca, 0xf5, 0xc6,
  0xd2, 0x09, 0xf6, 0x00, 0xcb, 0xf5, 0xdc, 0xfe, 0xe6, 0xed, 0xdb, 0xf0,
  0x0f, 0xd3, 0xd8, 0xef, 0x26, 0xd1, 0x1b, 0xed, 0xdf, 0xfd, 0xe3, 0x1a,
  0xfd, 0xdf, 0xf1, 0xe4, 0xe0, 0x1f, 0xcd, 0xe1, 0xf3, 0xd3, 0x18, 0x1c,
  0x10, 0xf1, 0x07, 0x20, 0x4d, 0x1a, 0xca, 0x09, 0xf6, 0x05, 0xd2, 0xfb,
  0xe8, 0x2b, 0x17, 0xd3, 0xf3, 0x40, 0x04, 0x0d, 0x2c, 0x16, 0xfd, 0x39,
  0x08, 0x05, 0x25, 0x1d, 0xfe, 0x15, 0xdc, 0x16, 0x10, 0x20, 0xdb, 0xee,
  0x0f, 0x1d, 0x1a, 0xf4, 0xf8, 0xe1, 0xd1, 0xec, 0xec, 0xda, 0x0a, 0x0a,
  0x0d, 0xe6, 0xe5, 0x0f, 0xf2, 0xe6, 0x1b, 0x1a, 0x1e, 0x00, 0x03, 0xe5,
  0xdd, 0x0f, 0xea, 0xe2, 0xf4, 0xf5, 0x0c, 0x03, 0x0f, 0xec, 0xc9, 0xd0,
  0xd0, 0x25, 0xce, 0x1f, 0xe9, 0xe1, 0xfa, 0x1f, 0x17, 0xdd, 0xc8, 0xf6,
  0xec, 0xdf, 0x15, 0x00, 0xe5, 0x13, 0x0f, 0x12, 0x2d, 0x10, 0xd9, 0x34,
  0xf3, 0x06, 0xe2, 0x06, 0xfe, 0xf6, 0xdf, 0x0e, 0xca, 0xd7, 0xd6, 0xcc,
  0x25, 0x02, 0x02, 0x09, 0x0c, 0xf2, 0x10, 0xf6, 0x23, 0xd1, 0xf8, 0xf9,
  0xdb, 0xfb, 0xfc, 0xf3, 0x09, 0xf1, 0xf3, 0xf7, 0x30, 0xea, 0x00, 0xe1,
  0x27, 0x0d, 0xd5, 0x27, 0xda, 0x1b, 0xf5, 0xde, 0xff, 0xe3, 0x07, 0x03,
  0xe9, 0x03, 0xfb, 0xfa, 0xef, 0xdf, 0xf7, 0x08, 0xd7, 0x28, 0x13, 0x17,
  0x20, 0xdb, 0x2b, 0xed, 0x07, 0x0d, 0x08, 0xe2, 0x14, 0x0f, 0xe9, 0xf7,
  0x10, 0xda, 0xc5, 0x25, 0x09, 0xe3, 0xcc, 0xd8, 0x05, 0xf1, 0x21, 0xfa,
  0xf7, 0xe5, 0xf3, 0xe8, 0xe6, 0x30, 0xd1, 0x0e, 0x1c, 0xff, 0xee, 0x11,
  0xee, 0x05, 0x0a, 0x20, 0x0f, 0xdd, 0x04, 0xfe, 0xef, 0x10, 0xe8, 0xfc,
  0x13, 0xed, 0x30, 0x04, 0x12, 0x04, 0x44, 0x25, 0xf6, 0x36, 0xff, 0x09,
  0x26, 0x38, 0xdf, 0xfd, 0xe0, 0x2c, 0x1a, 0xf7, 0x2a, 0x1d, 0xe7, 0xe5,
  0xc7, 0xe4, 0x1c, 0xee, 0x00, 0xff, 0x04, 0x1c, 0x03, 0x35, 0x17, 0x24,
  0xfa, 0xcf, 0xe9, 0x0b, 0xf2, 0xf9, 0xea, 0x24, 0x32, 0xd4, 0xe8, 0x0c,
  0xd4, 0x1d, 0x02, 0xda, 0x2e, 0xfe, 0xe6, 0x31, 0x16, 0x17, 0xf9, 0x0d,
  0x29, 0x14, 0x20, 0x3b, 0x3d, 0x1b, 0x3e, 0x07, 0x05, 0xeb, 0x36, 0x07,
  0x32, 0x23, 0x34, 0x26, 0x0c, 0x06, 0x03, 0x29, 0xd9, 0x02, 0x1d, 0xef,
  0x1c, 0xdf, 0x1a, 0xe9, 0x04, 0x1c, 0xce, 0xfc, 0x18, 0xfa, 0x05, 0xec,
  0xe7, 0x2d, 0xd9, 0xaa, 0xde, 0xcc, 0x2d, 0x81, 0x19, 0xbd, 0xd4, 0xd0,
  0xb7, 0xcc, 0x20, 0x0a, 0xca, 0x02, 0xd5, 0x14, 0x22, 0xed, 0x09, 0xd9,
  0xeb, 0x03, 0x0d, 0xf4, 0x1c, 0x02, 0xee, 0x12, 0xf7, 0x1b, 0x30, 0x45,
  0x28, 0x12, 0xed, 0xff, 0x0b, 0xe8, 0xe5, 0x0d, 0x25, 0xd4, 0xfe, 0x10,
  0xeb, 0xcf, 0x1e, 0x16, 0x04, 0x25, 0xec, 0xcf, 0x2b, 0x11, 0xf2, 0xed,
  0x54, 0x00, 0x15, 0xfb, 0x14, 0x1c, 0x10, 0xef, 0xd2, 0x08, 0xb9, 0xf2,
  0x0a, 0x04, 0xf3, 0xed, 0xec, 0xf6, 0x18, 0x18, 0xe4, 0x20, 0x1a, 0x17,
  0xca, 0x0c, 0xdf, 0x03, 0x06, 0x01, 0x16, 0xda, 0x26, 0xea, 0x0d, 0xeb,
  0x1e, 0xda, 0xe9, 0xee, 0x18, 0xda, 0x10, 0xe8, 0xef, 0x27, 0xd5, 0xfd,
  0x19, 0x1c, 0x17, 0x02, 0xe9, 0x05, 0xd0, 0xe2, 0xec, 0x14, 0x08, 0xfb,
  0x04, 0xd7, 0xdc, 0xdd, 0xe9, 0x26, 0x2e, 0x0c, 0x0a, 0x09, 0x07, 0xea,
  0xfb, 0x07, 0xfa, 0xf0, 0xef, 0xf4, 0xed, 0x30, 0x1f, 0x2f, 0xda, 0x0c,
  0xf8, 0xd8, 0xf6, 0x27, 0x2a, 0x1a, 0x02, 0x0c, 0x38, 0x2b, 0x0e, 0x02,
  0xfb, 0xed, 0x09, 0xd0, 0xcc, 0x29, 0xf2, 0x08, 0x21, 0xdd, 0xf8, 0xee,
  0x0a, 0x0a, 0xe4, 0xf1, 0xe2, 0x06, 0xea, 0xe8, 0x2d, 0xe0, 0xea, 0x1b,
  0xde, 0x25, 0xfa, 0xdc, 0x29, 0x1a, 0x18, 0x1f, 0x11, 0x00, 0xe3, 0xf8,
  0x1b, 0x28, 0x1e, 0x14, 0xff, 0xe1, 0xf7, 0x01, 0xe2, 0xdc, 0x27, 0xe9,
  0xec, 0x10, 0xf2, 0xee, 0xda, 0xf9, 0x23, 0xe5, 0xf9, 0x37, 0xed, 0xe4,
  0x24, 0xfc, 0x07, 0xfd, 0x1e, 0x19, 0x3b, 0xfe, 0x17, 0x40, 0x16, 0x13,
  0x02, 0x0a, 0xd9, 0x33, 0x26, 0x03, 0x40, 0x02, 0x21, 0x30, 0x3a, 0x0c,
  0xf6, 0x0d, 0x09, 0xfc, 0x27, 0x2b, 0xd6, 0x22, 0x28, 0x06, 0x2a, 0xdf,
  0xd3, 0xd8, 0xe2, 0x20, 0x96, 0xfe, 0xff, 0xff, 0x04, 0x00, 0x00, 0x00,
  0x0c, 0x00, 0x00, 0x00, 0xb3, 0xff, 0xff, 0xff, 0x7b, 0xff, 0xff, 0xff,
  0xbd, 0x00, 0x00, 0x00, 0x00, 0x00, 0x00, 0x00, 0x00, 0x00, 0x00, 0x00,
  0xb6, 0xfe, 0xff, 0xff, 0x04, 0x00, 0x00, 0x00, 0x28, 0x00, 0x00, 0x00,
  0xd8, 0xff, 0xff, 0xff, 0xc0, 0x01, 0x00, 0x00, 0x79, 0x01, 0x00, 0x00,
  0x0a, 0x01, 0x00, 0x00, 0x2a, 0x01, 0x00, 0x00, 0x38, 0x01, 0x00, 0x00,
  0xc3, 0xff, 0xff, 0xff, 0x86, 0xff, 0xff, 0xff, 0x14, 0x00, 0x00, 0x00,
  0x46, 0xff, 0xff, 0xff, 0x00, 0x00, 0x00, 0x00, 0x00, 0x00, 0x00, 0x00,
  0x00, 0x00, 0x00, 0x00, 0xf6, 0xfe, 0xff, 0xff, 0x04, 0x00, 0x00, 0x00,
  0x50, 0x00, 0x00, 0x00, 0x92, 0x00, 0x00, 0x00, 0x65, 0x01, 0x00, 0x00,
  0xba, 0xff, 0xff, 0xff, 0xe8, 0xff, 0xff, 0xff, 0xa8, 0x00, 0x00, 0x00,
  0x75, 0x01, 0x00, 0x00, 0x92, 0x01, 0x00, 0x00, 0x56, 0x00, 0x00, 0x00,
  0xa6, 0x01, 0x00, 0x00, 0xee, 0xff, 0xff, 0xff, 0xc8, 0x01, 0x00, 0x00,
  0x8d, 0xff, 0xff, 0xff, 0xd3, 0x00, 0x00, 0x00, 0xeb, 0xff, 0xff, 0xff,
  0x12, 0x00, 0x00, 0x00, 0xf1, 0x00, 0x00, 0x00, 0xaa, 0xff, 0xff, 0xff,
  0x8f, 0x01, 0x00, 0x00, 0x04, 0x01, 0x00, 0x00, 0x68, 0xff, 0xff, 0xff,
  0x00, 0x00, 0x00, 0x00, 0x00, 0x00, 0x00, 0x00, 0x00, 0x00, 0x00, 0x00,
  0x2c, 0xff, 0xff, 0xff, 0x00, 0x00, 0x00, 0x00, 0x00, 0x00, 0x00, 0x00,
  0x00, 0x00, 0x00, 0x00, 0x3c, 0xff, 0xff, 0xff, 0x0f, 0x00, 0x00, 0x00,
  0x4d, 0x4c, 0x49, 0x52, 0x20, 0x43, 0x6f, 0x6e, 0x76, 0x65, 0x72, 0x74,
  0x65, 0x64, 0x2e, 0x00, 0x01, 0x00, 0x00, 0x00, 0x14, 0x00, 0x00, 0x00,
  0x00, 0x00, 0x0e, 0x00, 0x18, 0x00, 0x04, 0x00, 0x08, 0x00, 0x0c, 0x00,
  0x10, 0x00, 0x14, 0x00, 0x0e, 0x00, 0x00, 0x00, 0x50, 0x01, 0x00, 0x00,
  0x44, 0x01, 0x00, 0x00, 0x38, 0x01, 0x00, 0x00, 0x14, 0x00, 0x00, 0x00,
  0x04, 0x00, 0x00, 0x00, 0x04, 0x00, 0x00, 0x00, 0x6d, 0x61, 0x69, 0x6e,
  0x00, 0x00, 0x00, 0x00, 0x04, 0x00, 0x00, 0x00, 0xe0, 0x00, 0x00, 0x00,
  0x98, 0x00, 0x00, 0x00, 0x50, 0x00, 0x00, 0x00, 0x14, 0x00, 0x00, 0x00,
  0x00, 0x00, 0x0e, 0x00, 0x1a, 0x00, 0x08, 0x00, 0x0c, 0x00, 0x10, 0x00,
  0x07, 0x00, 0x14, 0x00, 0x0e, 0x00, 0x00, 0x00, 0x00, 0x00, 0x00, 0x09,
  0x01, 0x00, 0x00, 0x00, 0x24, 0x00, 0x00, 0x00, 0x18, 0x00, 0x00, 0x00,
  0x0c, 0x00, 0x00, 0x00, 0x00, 0x00, 0x06, 0x00, 0x08, 0x00, 0x04, 0x00,
  0x06, 0x00, 0x00, 0x00, 0x00, 0x00, 0x80, 0x3f, 0x01, 0x00, 0x00, 0x00,
  0x0a, 0x00, 0x00, 0x00, 0x01, 0x00, 0x00, 0x00, 0x09, 0x00, 0x00, 0x00,
  0xca, 0xff, 0xff, 0xff, 0x00, 0x00, 0x00, 0x08, 0x1c, 0x00, 0x00, 0x00,
  0x10, 0x00, 0x00, 0x00, 0x08, 0x00, 0x00, 0x00, 0x04, 0x00, 0x04, 0x00,
  0x04, 0x00, 0x00, 0x00, 0x01, 0x00, 0x00, 0x00, 0x09, 0x00, 0x00, 0x00,
  0x03, 0x00, 0x00, 0x00, 0x08, 0x00, 0x00, 0x00, 0x06, 0x00, 0x00, 0x00,
  0x03, 0x00, 0x00, 0x00, 0x00, 0x00, 0x0e, 0x00, 0x14, 0x00, 0x00, 0x00,
  0x08, 0x00, 0x0c, 0x00, 0x07, 0x00, 0x10, 0x00, 0x0e, 0x00, 0x00, 0x00,
  0x00, 0x00, 0x00, 0x08, 0x1c, 0x00, 0x00, 0x00, 0x10, 0x00, 0x00, 0x00,
  0x04, 0x00, 0x00, 0x00, 0xba, 0xff, 0xff, 0xff, 0x00, 0x00, 0x00, 0x01,
  0x01, 0x00, 0x00, 0x00, 0x08, 0x00, 0x00, 0x00, 0x03, 0x00, 0x00, 0x00,
  0x07, 0x00, 0x00, 0x00, 0x05, 0x00, 0x00, 0x00, 0x02, 0x00, 0x00, 0x00,
  0x00, 0x00, 0x0e, 0x00, 0x16, 0x00, 0x00, 0x00, 0x08, 0x00, 0x0c, 0x00,
  0x07, 0x00, 0x10, 0x00, 0x0e, 0x00, 0x00, 0x00, 0x00, 0x00, 0x00, 0x08,
  0x24, 0x00, 0x00, 0x00, 0x18, 0x00, 0x00, 0x00, 0x0c, 0x00, 0x00, 0x00,
  0x00, 0x00, 0x06, 0x00, 0x08, 0x00, 0x07, 0x00, 0x06, 0x00, 0x00, 0x00,
  0x00, 0x00, 0x00, 0x01, 0x01, 0x00, 0x00, 0x00, 0x07, 0x00, 0x00, 0x00,
  0x03, 0x00, 0x00, 0x00, 0x00, 0x00, 0x00, 0x00, 0x04, 0x00, 0x00, 0x00,
  0x01, 0x00, 0x00, 0x00, 0x01, 0x00, 0x00, 0x00, 0x0a, 0x00, 0x00, 0x00,
  0x01, 0x00, 0x00, 0x00, 0x00, 0x00, 0x00, 0x00, 0x0b, 0x00, 0x00, 0x00,
  0x38, 0x06, 0x00, 0x00, 0xc4, 0x05, 0x00, 0x00, 0x6c, 0x05, 0x00, 0x00,
  0x18, 0x05, 0x00, 0x00, 0x6c, 0x04, 0x00, 0x00, 0xb8, 0x03, 0x00, 0x00,
  0x04, 0x03, 0x00, 0x00, 0x10, 0x02, 0x00, 0x00, 0x14, 0x01, 0x00, 0x00,
  0x60, 0x00, 0x00, 0x00, 0x04, 0x00, 0x00, 0x00, 0x02, 0xfa, 0xff, 0xff,
  0x00, 0x00, 0x00, 0x09, 0x44, 0x00, 0x00, 0x00, 0x0b, 0x00, 0x00, 0x00,
  0x2c, 0x00, 0x00, 0x00, 0x04, 0x00, 0x00, 0x00, 0x64, 0xfa, 0xff, 0xff,
  0x18, 0x00, 0x00, 0x00, 0x04, 0x00, 0x00, 0x00, 0x01, 0x00, 0x00, 0x00,
  0x80, 0xff, 0xff, 0xff, 0xff, 0xff, 0xff, 0xff, 0x00, 0x00, 0x00, 0x00,
  0x01, 0x00, 0x00, 0x00, 0x00, 0x00, 0x80, 0x3b, 0x08, 0x00, 0x00, 0x00,
  0x49, 0x64, 0x65, 0x6e, 0x74, 0x69, 0x74, 0x79, 0x00, 0x00, 0x00, 0x00,
  0x02, 0x00, 0x00, 0x00, 0x01, 0x00, 0x00, 0x00, 0x03, 0x00, 0x00, 0x00,
  0x5a, 0xfa, 0xff, 0xff, 0x00, 0x00, 0x00, 0x09, 0x9c, 0x00, 0x00, 0x00,
  0x0a, 0x00, 0x00, 0x00, 0x44, 0x00, 0x00, 0x00, 0x04, 0x00, 0x00, 0x00,
  0x4c, 0xfa, 0xff, 0xff, 0x30, 0x00, 0x00, 0x00, 0x24, 0x00, 0x00, 0x00,
  0x18, 0x00, 0x00, 0x00, 0x04, 0x00, 0x00, 0x00, 0x01, 0x00, 0x00, 0x00,
  0x03, 0x00, 0x00, 0x00, 0x00, 0x00, 0x00, 0x00, 0x00, 0x00, 0x00, 0x00,
  0x01, 0x00, 0x00, 0x00, 0x71, 0x01, 0x37, 0x3e, 0x01, 0x00, 0x00, 0x00,
  0xb7, 0x88, 0xb1, 0x41, 0x01, 0x00, 0x00, 0x00, 0x28, 0x0c, 0xbb, 0xc1,
  0x4b, 0x00, 0x00, 0x00, 0x73, 0x65, 0x71, 0x75, 0x65, 0x6e, 0x74, 0x69,
  0x61, 0x6c, 0x2f, 0x79, 0x5f, 0x70, 0x72, 0x65, 0x64, 0x2f, 0x42, 0x69,
  0x61, 0x73, 0x41, 0x64, 0x64, 0x3b, 0x53, 0x74, 0x61, 0x74, 0x65, 0x66,
  0x75, 0x6c, 0x50, 0x61, 0x72, 0x74, 0x69, 0x74, 0x69, 0x6f, 0x6e, 0x65,
  0x64, 0x43, 0x61, 0x6c, 0x6c, 0x2f, 0x73, 0x65, 0x71, 0x75, 0x65, 0x6e,
  0x74, 0x69, 0x61, 0x6c, 0x2f, 0x79, 0x5f, 0x70, 0x72, 0x65, 0x64, 0x2f,
  0x42, 0x69, 0x61, 0x73, 0x41, 0x64, 0x64, 0x00, 0x02, 0x00, 0x00, 0x00,
  0x01, 0x00, 0x00, 0x00, 0x03, 0x00, 0x00, 0x00, 0x0a, 0xfb, 0xff, 0xff,
  0x00, 0x00, 0x00, 0x09, 0xe4, 0x00, 0x00, 0x00, 0x09, 0x00, 0x00, 0x00,
  0x40, 0x00, 0x00, 0x00, 0x04, 0x00, 0x00, 0x00, 0xfc, 0xfa, 0xff, 0xff,
  0x2c, 0x00, 0x00, 0x00, 0x20, 0x00, 0x00, 0x00, 0x14, 0x00, 0x00, 0x00,
  0x04, 0x00, 0x00, 0x00, 0x01, 0x00, 0x00, 0x00, 0x80, 0xff, 0xff, 0xff,
  0xff, 0xff, 0xff, 0xff, 0x01, 0x00, 0x00, 0x00, 0xc6, 0xf7, 0x20, 0x3e,
  0x01, 0x00, 0x00, 0x00, 0xce, 0x56, 0x20, 0x42, 0x01, 0x00, 0x00, 0x00,
  0x00, 0x00, 0x00, 0x00, 0x95, 0x00, 0x00, 0x00, 0x73, 0x65, 0x71, 0x75,
  0x65, 0x6e, 0x74, 0x69, 0x61, 0x6c, 0x2f, 0x64, 0x65, 0x6e, 0x73, 0x65,
  0x5f, 0x31, 0x2f, 0x52, 0x65, 0x6c, 0x75, 0x3b, 0x53, 0x74, 0x61, 0x74,
  0x65, 0x66, 0x75, 0x6c, 0x50, 0x61, 0x72, 0x74, 0x69, 0x74, 0x69, 0x6f,
  0x6e, 0x65, 0x64, 0x43, 0x61, 0x6c, 0x6c, 0x2f, 0x73, 0x65, 0x71, 0x75,
  0x65, 0x6e, 0x74, 0x69, 0x61, 0x6c, 0x2f, 0x64, 0x65, 0x6e, 0x73, 0x65,
  0x5f, 0x31, 0x2f, 0x52, 0x65, 0x6c, 0x75, 0x3b, 0x73, 0x65, 0x71, 0x75,
  0x65, 0x6e, 0x74, 0x69, 0x61, 0x6c, 0x2f, 0x64, 0x65, 0x6e, 0x73, 0x65,
  0x5f, 0x31, 0x2f, 0x42, 0x69, 0x61, 0x73, 0x41, 0x64, 0x64, 0x3b, 0x53,
  0x74, 0x61, 0x74, 0x65, 0x66, 0x75, 0x6c, 0x50, 0x61, 0x72, 0x74, 0x69,
  0x74, 0x69, 0x6f, 0x6e, 0x65, 0x64, 0x43, 0x61, 0x6c, 0x6c, 0x2f, 0x73,
  0x65, 0x71, 0x75, 0x65, 0x6e, 0x74, 0x69, 0x61, 0x6c, 0x2f, 0x64, 0x65,
  0x6e, 0x73, 0x65, 0x5f, 0x31, 0x2f, 0x42, 0x69, 0x61, 0x73, 0x41, 0x64,
  0x64, 0x00, 0x00, 0x00, 0x02, 0x00, 0x00, 0x00, 0x01, 0x00, 0x00, 0x00,
  0x0a, 0x00, 0x00, 0x00, 0x02, 0xfc, 0xff, 0xff, 0x00, 0x00, 0x00, 0x09,
  0xdc, 0x00, 0x00, 0x00, 0x08, 0x00, 0x00, 0x00, 0x40, 0x00, 0x00, 0x00,
  0x04, 0x00, 0x00, 0x00, 0xf4, 0xfb, 0xff, 0xff, 0x2c, 0x00, 0x00, 0x00,
  0x20, 0x00, 0x00, 0x00, 0x14, 0x00, 0x00, 0x00, 0x04, 0x00, 0x00, 0x00,
  0x01, 0x00, 0x00, 0x00, 0x80, 0xff, 0xff, 0xff, 0xff, 0xff, 0xff, 0xff,
  0x01, 0x00, 0x00, 0x00, 0x25, 0x15, 0x40, 0x3e, 0x01, 0x00, 0x00, 0x00,
  0x10, 0x55, 0x3f, 0x42, 0x01, 0x00, 0x00, 0x00, 0x00, 0x00, 0x00, 0x00,
  0x8d, 0x00, 0x00, 0x00, 0x73, 0x65, 0x71, 0x75, 0x65, 0x6e, 0x74, 0x69,
  0x61, 0x6c, 0x2f, 0x64, 0x65, 0x6e, 0x73, 0x65, 0x2f, 0x52, 0x65, 0x6c,
  0x75, 0x3b, 0x53, 0x74, 0x61, 0x74, 0x65, 0x66, 0x75, 0x6c, 0x50, 0x61,
  0x72, 0x74, 0x69, 0x74, 0x69, 0x6f, 0x6e, 0x65, 0x64, 0x43, 0x61, 0x6c,
  0x6c, 0x2f, 0x73, 0x65, 0x71, 0x75, 0x65, 0x6e, 0x74, 0x69, 0x61, 0x6c,
  0x2f, 0x64, 0x65, 0x6e, 0x73, 0x65, 0x2f, 0x52, 0x65, 0x6c, 0x75, 0x3b,
  0x73, 0x65, 0x71, 0x75, 0x65, 0x6e, 0x74, 0x69, 0x61, 0x6c, 0x2f, 0x64,
  0x65, 0x6e, 0x73, 0x65, 0x2f, 0x42, 0x69, 0x61, 0x73, 0x41, 0x64, 0x64,
  0x3b, 0x53, 0x74, 0x61, 0x74, 0x65, 0x66, 0x75, 0x6c, 0x50, 0x61, 0x72,
  0x74, 0x69, 0x74, 0x69, 0x6f, 0x6e, 0x65, 0x64, 0x43, 0x61, 0x6c, 0x6c,
  0x2f, 0x73, 0x65, 0x71, 0x75, 0x65, 0x6e, 0x74, 0x69, 0x61, 0x6c, 0x2f,
  0x64, 0x65, 0x6e, 0x73, 0x65, 0x2f, 0x42, 0x69, 0x61, 0x73, 0x41, 0x64,
  0x64, 0x00, 0x00, 0x00, 0x02, 0x00, 0x00, 0x00, 0x01, 0x00, 0x00, 0x00,
  0x14, 0x00, 0x00, 0x00, 0xf2, 0xfc, 0xff, 0xff, 0x00, 0x00, 0x00, 0x09,
  0x9c, 0x00, 0x00, 0x00, 0x07, 0x00, 0x00, 0x00, 0x44, 0x00, 0x00, 0x00,
  0x04, 0x00, 0x00, 0x00, 0xe4, 0xfc, 0xff, 0xff, 0x30, 0x00, 0x00, 0x00,
  0x24, 0x00, 0x00, 0x00, 0x18, 0x00, 0x00, 0x00, 0x04, 0x00, 0x00, 0x00,
  0x01, 0x00, 0x00, 0x00, 0x00, 0x00, 0x00, 0x00, 0x00, 0x00, 0x00, 0x00,
  0x00, 0x00, 0x00, 0x00, 0x01, 0x00, 0x00, 0x00, 0x12, 0x5e, 0x2c, 0x3c,
  0x01, 0x00, 0x00, 0x00, 0xd3, 0x64, 0x0e, 0x3f, 0x01, 0x00, 0x00, 0x00,
  0x56, 0x05, 0xab, 0xbf, 0x49, 0x00, 0x00, 0x00, 0x73, 0x65, 0x71, 0x75,
  0x65, 0x6e, 0x74, 0x69, 0x61, 0x6c, 0x2f, 0x79, 0x5f, 0x70, 0x72, 0x65,
  0x64, 0x2f, 0x4d, 0x61, 0x74, 0x4d, 0x75, 0x6c, 0x3b, 0x53, 0x74, 0x61,
  0x74, 0x65, 0x66, 0x75, 0x6c, 0x50, 0x61, 0x72, 0x74, 0x69, 0x74, 0x69,
  0x6f, 0x6e, 0x65, 0x64, 0x43, 0x61, 0x6c, 0x6c, 0x2f, 0x73, 0x65, 0x71,
  0x75, 0x65, 0x6e, 0x74, 0x69, 0x61, 0x6c, 0x2f, 0x79, 0x5f, 0x70, 0x72,
  0x65, 0x64, 0x2f, 0x4d, 0x61, 0x74, 0x4d, 0x75, 0x6c, 0x00, 0x00, 0x00,
  0x02, 0x00, 0x00, 0x00, 0x03, 0x00, 0x00, 0x00, 0x0a, 0x00, 0x00, 0x00,
  0xa2, 0xfd, 0xff, 0xff, 0x00, 0x00, 0x00, 0x09, 0x9c, 0x00, 0x00, 0x00,
  0x06, 0x00, 0x00, 0x00, 0x44, 0x00, 0x00, 0x00, 0x04, 0x00, 0x00, 0x00,
  0x94, 0xfd, 0xff, 0xff, 0x30, 0x00, 0x00, 0x00, 0x24, 0x00, 0x00, 0x00,
  0x18, 0x00, 0x00, 0x00, 0x04, 0x00, 0x00, 0x00, 0x01, 0x00, 0x00, 0x00,
  0x00, 0x00, 0x00, 0x00, 0x00, 0x00, 0x00, 0x00, 0x00, 0x00, 0x00, 0x00,
  0x01, 0x00, 0x00, 0x00, 0x9d, 0xdc, 0xdd, 0x3b, 0x01, 0x00, 0x00, 0x00,
  0xe4, 0x20, 0x5c, 0x3f, 0x01, 0x00, 0x00, 0x00, 0x42, 0xc8, 0x03, 0xbf,
  0x4b, 0x00, 0x00, 0x00, 0x73, 0x65, 0x71, 0x75, 0x65, 0x6e, 0x74, 0x69,
  0x61, 0x6c, 0x2f, 0x64, 0x65, 0x6e, 0x73, 0x65, 0x5f, 0x31, 0x2f, 0x4d,
  0x61, 0x74, 0x4d, 0x75, 0x6c, 0x3b, 0x53, 0x74, 0x61, 0x74, 0x65, 0x66,
  0x75, 0x6c, 0x50, 0x61, 0x72, 0x74, 0x69, 0x74, 0x69, 0x6f, 0x6e, 0x65,
  0x64, 0x43, 0x61, 0x6c, 0x6c, 0x2f, 0x73, 0x65, 0x71, 0x75, 0x65, 0x6e,
  0x74, 0x69, 0x61, 0x6c, 0x2f, 0x64, 0x65, 0x6e, 0x73, 0x65, 0x5f, 0x31,
  0x2f, 0x4d, 0x61, 0x74, 0x4d, 0x75, 0x6c, 0x00, 0x02, 0x00, 0x00, 0x00,
  0x0a, 0x00, 0x00, 0x00, 0x14, 0x00, 0x00, 0x00, 0x52, 0xfe, 0xff, 0xff,
  0x00, 0x00, 0x00, 0x09, 0x94, 0x00, 0x00, 0x00, 0x05, 0x00, 0x00, 0x00,
  0x40, 0x00, 0x00, 0x00, 0x04, 0x00, 0x00, 0x00, 0x44, 0xfe, 0xff, 0xff,
  0x2c, 0x00, 0x00, 0x00, 0x20, 0x00, 0x00, 0x00, 0x14, 0x00, 0x00, 0x00,
  0x04, 0x00, 0x00, 0x00, 0x01, 0x00, 0x00, 0x00, 0x00, 0x00, 0x00, 0x00,
  0x00, 0x00, 0x00, 0x00, 0x01, 0x00, 0x00, 0x00, 0x63, 0xd6, 0xec, 0x3b,
  0x01, 0x00, 0x00, 0x00, 0x8e, 0x9d, 0x1a, 0x3f, 0x01, 0x00, 0x00, 0x00,
  0xb6, 0xfc, 0x6a, 0xbf, 0x47, 0x00, 0x00, 0x00, 0x73, 0x65, 0x71, 0x75,
  0x65, 0x6e, 0x74, 0x69, 0x61, 0x6c, 0x2f, 0x64, 0x65, 0x6e, 0x73, 0x65,
  0x2f, 0x4d, 0x61, 0x74, 0x4d, 0x75, 0x6c, 0x3b, 0x53, 0x74, 0x61, 0x74,
  0x65, 0x66, 0x75, 0x6c, 0x50, 0x61, 0x72, 0x74, 0x69, 0x74, 0x69, 0x6f,
  0x6e, 0x65, 0x64, 0x43, 0x61, 0x6c, 0x6c, 0x2f, 0x73, 0x65, 0x71, 0x75,
  0x65, 0x6e, 0x74, 0x69, 0x61, 0x6c, 0x2f, 0x64, 0x65, 0x6e, 0x73, 0x65,
  0x2f, 0x4d, 0x61, 0x74, 0x4d, 0x75, 0x6c, 0x00, 0x02, 0x00, 0x00, 0x00,
  0x14, 0x00, 0x00, 0x00, 0x21, 0x00, 0x00, 0x00, 0xfa, 0xfe, 0xff, 0xff,
  0x00, 0x00, 0x00, 0x02, 0x40, 0x00, 0x00, 0x00, 0x04, 0x00, 0x00, 0x00,
  0x28, 0x00, 0x00, 0x00, 0x04, 0x00, 0x00, 0x00, 0x5c, 0xff, 0xff, 0xff,
  0x14, 0x00, 0x00, 0x00, 0x04, 0x00, 0x00, 0x00, 0x01, 0x00, 0x00, 0x00,
  0x00, 0x00, 0x00, 0x00, 0x00, 0x00, 0x00, 0x00, 0x01, 0x00, 0x00, 0x00,
  0x3f, 0xc3, 0xd8, 0x3a, 0x09, 0x00, 0x00, 0x00, 0x75, 0x6e, 0x6b, 0x6e,
  0x6f, 0x77, 0x6e, 0x5f, 0x34, 0x00, 0x00, 0x00, 0x01, 0x00, 0x00, 0x00,
  0x03, 0x00, 0x00, 0x00, 0x4a, 0xff, 0xff, 0xff, 0x00, 0x00, 0x00, 0x02,
  0x44, 0x00, 0x00, 0x00, 0x03, 0x00, 0x00, 0x00, 0x2c, 0x00, 0x00, 0x00,
  0x04, 0x00, 0x00, 0x00, 0xac, 0xff, 0xff, 0xff, 0x18, 0x00, 0x00, 0x00,
  0x04, 0x00, 0x00, 0x00, 0x01, 0x00, 0x00, 0x00, 0x00, 0x00, 0x00, 0x00,
  0x00, 0x00, 0x00, 0x00, 0x00, 0x00, 0x00, 0x00, 0x01, 0x00, 0x00, 0x00,
  0xc9, 0x77, 0xa6, 0x3a, 0x09, 0x00, 0x00, 0x00, 0x75, 0x6e, 0x6b, 0x6e,
  0x6f, 0x77, 0x6e, 0x5f, 0x32, 0x00, 0x00, 0x00, 0x01, 0x00, 0x00, 0x00,
  0x0a, 0x00, 0x00, 0x00, 0x9e, 0xff, 0xff, 0xff, 0x00, 0x00, 0x00, 0x02,
  0x50, 0x00, 0x00, 0x00, 0x02, 0x00, 0x00, 0x00, 0x38, 0x00, 0x00, 0x00,
  0x10, 0x00, 0x00, 0x00, 0x0c, 0x00, 0x0c, 0x00, 0x00, 0x00, 0x00, 0x00,
  0x04, 0x00, 0x08, 0x00, 0x0c, 0x00, 0x00, 0x00, 0x18, 0x00, 0x00, 0x00,
  0x04, 0x00, 0x00, 0x00, 0x01, 0x00, 0x00, 0x00, 0x00, 0x00, 0x00, 0x00,
  0x00, 0x00, 0x00, 0x00, 0x00, 0x00, 0x00, 0x00, 0x01, 0x00, 0x00, 0x00,
  0x6e, 0xce, 0xb6, 0x3a, 0x09, 0x00, 0x00, 0x00, 0x75, 0x6e, 0x6b, 0x6e,
  0x6f, 0x77, 0x6e, 0x5f, 0x30, 0x00, 0x00, 0x00, 0x01, 0x00, 0x00, 0x00,
  0x14, 0x00, 0x00, 0x00, 0x00, 0x00, 0x0e, 0x00, 0x18, 0x00, 0x08, 0x00,
  0x07, 0x00, 0x0c, 0x00, 0x10, 0x00, 0x14, 0x00, 0x0e, 0x00, 0x00, 0x00,
  0x00, 0x00, 0x00, 0x09, 0x64, 0x00, 0x00, 0x00, 0x01, 0x00, 0x00, 0x00,
  0x50, 0x00, 0x00, 0x00, 0x10, 0x00, 0x00, 0x00, 0x0c, 0x00, 0x14, 0x00,
  0x04, 0x00, 0x08, 0x00, 0x0c, 0x00, 0x10, 0x00, 0x0c, 0x00, 0x00, 0x00,
  0x30, 0x00, 0x00, 0x00, 0x24, 0x00, 0x00, 0x00, 0x18, 0x00, 0x00, 0x00,
  0x04, 0x00, 0x00, 0x00, 0x01, 0x00, 0x00, 0x00, 0x80, 0xff, 0xff, 0xff,
  0xff, 0xff, 0xff, 0xff, 0x00, 0x00, 0x00, 0x00, 0x01, 0x00, 0x00, 0x00,
  0xe6, 0x98, 0x45, 0x3e, 0x01, 0x00, 0x00, 0x00, 0x4d, 0xd3, 0x44, 0x42,
  0x01, 0x00, 0x00, 0x00, 0x00, 0x00, 0x00, 0x00, 0x07, 0x00, 0x00, 0x00,
  0x78, 0x5f, 0x69, 0x6e, 0x70, 0x75, 0x74, 0x00, 0x02, 0x00, 0x00, 0x00,
  0x01, 0x00, 0x00, 0x00, 0x21, 0x00, 0x00, 0x00, 0x02, 0x00, 0x00, 0x00,
  0x2c, 0x00, 0x00, 0x00, 0x10, 0x00, 0x00, 0x00, 0x00, 0x00, 0x0a, 0x00,
  0x0e, 0x00, 0x07, 0x00, 0x00, 0x00, 0x08, 0x00, 0x0a, 0x00, 0x00, 0x00,
  0x00, 0x00, 0x00, 0x19, 0x02, 0x00, 0x00, 0x00, 0x00, 0x00, 0x0a, 0x00,
  0x0c, 0x00, 0x07, 0x00, 0x00, 0x00, 0x08, 0x00, 0x0a, 0x00, 0x00, 0x00,
  0x00, 0x00, 0x00, 0x09, 0x04, 0x00, 0x00, 0x00
};
unsigned int trained_tflite_len = 3584;
